const unsigned char model[] = {
  0x1c, 0x00, 0x00, 0x00, 0x54, 0x46, 0x4c, 0x33, 0x00, 0x00, 0x12, 0x00,
  0x1c, 0x00, 0x04, 0x00, 0x08, 0x00, 0x0c, 0x00, 0x10, 0x00, 0x14, 0x00,
  0x00, 0x00, 0x18, 0x00, 0x12, 0x00, 0x00, 0x00, 0x03, 0x00, 0x00, 0x00,
  0x14, 0x00, 0x00, 0x00, 0x1c, 0x00, 0x00, 0x00, 0x94, 0x00, 0x00, 0x00,
  0x1c, 0x00, 0x00, 0x00, 0x3c, 0x00, 0x00, 0x00, 0x02, 0x00, 0x00, 0x00,
  0x50, 0x02, 0x00, 0x00, 0x2c, 0x01, 0x00, 0x00, 0x01, 0x00, 0x00, 0x00,
  0x9c, 0x00, 0x00, 0x00, 0x08, 0x00, 0x00, 0x00, 0x74, 0x0b, 0x00, 0x00,
  0x70, 0x0b, 0x00, 0x00, 0x38, 0x03, 0x00, 0x00, 0x80, 0x02, 0x00, 0x00,
  0x64, 0x0b, 0x00, 0x00, 0x60, 0x0b, 0x00, 0x00, 0x5c, 0x0b, 0x00, 0x00,
  0x38, 0x00, 0x00, 0x00, 0x01, 0x00, 0x00, 0x00, 0x0c, 0x00, 0x00, 0x00,
  0x08, 0x00, 0x0c, 0x00, 0x04, 0x00, 0x08, 0x00, 0x08, 0x00, 0x00, 0x00,
  0x08, 0x00, 0x00, 0x00, 0x07, 0x00, 0x00, 0x00, 0x13, 0x00, 0x00, 0x00,
  0x6d, 0x69, 0x6e, 0x5f, 0x72, 0x75, 0x6e, 0x74, 0x69, 0x6d, 0x65, 0x5f,
  0x76, 0x65, 0x72, 0x73, 0x69, 0x6f, 0x6e, 0x00, 0x1a, 0xfd, 0xff, 0xff,
  0x04, 0x00, 0x00, 0x00, 0x10, 0x00, 0x00, 0x00, 0x31, 0x2e, 0x31, 0x34,
  0x2e, 0x30, 0x00, 0x00, 0x00, 0x00, 0x00, 0x00, 0x00, 0x00, 0x00, 0x00,
  0x0f, 0x00, 0x00, 0x00, 0x4d, 0x4c, 0x49, 0x52, 0x20, 0x43, 0x6f, 0x6e,
  0x76, 0x65, 0x72, 0x74, 0x65, 0x64, 0x2e, 0x00, 0x00, 0x00, 0x0e, 0x00,
  0x18, 0x00, 0x04, 0x00, 0x08, 0x00, 0x0c, 0x00, 0x10, 0x00, 0x14, 0x00,
  0x0e, 0x00, 0x00, 0x00, 0x14, 0x00, 0x00, 0x00, 0x2c, 0x00, 0x00, 0x00,
  0x30, 0x00, 0x00, 0x00, 0x34, 0x00, 0x00, 0x00, 0x40, 0x00, 0x00, 0x00,
  0x06, 0x00, 0x00, 0x00, 0x88, 0x0a, 0x00, 0x00, 0x28, 0x0a, 0x00, 0x00,
  0x38, 0x02, 0x00, 0x00, 0x8c, 0x01, 0x00, 0x00, 0xdc, 0x00, 0x00, 0x00,
  0x64, 0x00, 0x00, 0x00, 0x01, 0x00, 0x00, 0x00, 0x00, 0x00, 0x00, 0x00,
  0x01, 0x00, 0x00, 0x00, 0x05, 0x00, 0x00, 0x00, 0x03, 0x00, 0x00, 0x00,
  0x18, 0x01, 0x00, 0x00, 0x8c, 0x00, 0x00, 0x00, 0x18, 0x00, 0x00, 0x00,
  0x04, 0x00, 0x00, 0x00, 0x6d, 0x61, 0x69, 0x6e, 0x00, 0x00, 0x0a, 0x00,
  0x10, 0x00, 0x04, 0x00, 0x08, 0x00, 0x0c, 0x00, 0x0a, 0x00, 0x00, 0x00,
  0x01, 0x00, 0x00, 0x00, 0x10, 0x00, 0x00, 0x00, 0x04, 0x00, 0x00, 0x00,
  0x01, 0x00, 0x00, 0x00, 0x05, 0x00, 0x00, 0x00, 0x01, 0x00, 0x00, 0x00,
  0x04, 0x00, 0x00, 0x00, 0xea, 0xfe, 0xff, 0xff, 0x00, 0x00, 0x00, 0x0e,
  0x01, 0x00, 0x00, 0x00, 0xfe, 0xf5, 0xff, 0xff, 0x10, 0x00, 0x00, 0x00,
  0x06, 0x00, 0x00, 0x00, 0x14, 0x00, 0x00, 0x00, 0x20, 0x00, 0x00, 0x00,
  0x02, 0x00, 0x00, 0x00, 0x01, 0x00, 0x00, 0x00, 0x01, 0x00, 0x00, 0x00,
  0x08, 0x00, 0x00, 0x00, 0x49, 0x64, 0x65, 0x6e, 0x74, 0x69, 0x74, 0x79,
  0x00, 0x00, 0x00, 0x00, 0x38, 0xf6, 0xff, 0xff, 0x00, 0x00, 0x0e, 0x00,
  0x14, 0x00, 0x00, 0x00, 0x08, 0x00, 0x0c, 0x00, 0x07, 0x00, 0x10, 0x00,
  0x0e, 0x00, 0x00, 0x00, 0x00, 0x00, 0x00, 0x08, 0x18, 0x00, 0x00, 0x00,
  0x0c, 0x00, 0x00, 0x00, 0x04, 0x00, 0x00, 0x00, 0x10, 0xf6, 0xff, 0xff,
  0x01, 0x00, 0x00, 0x00, 0x04, 0x00, 0x00, 0x00, 0x03, 0x00, 0x00, 0x00,
  0x03, 0x00, 0x00, 0x00, 0x02, 0x00, 0x00, 0x00, 0xff, 0xff, 0xff, 0xff,
  0x72, 0xf6, 0xff, 0xff, 0x10, 0x00, 0x00, 0x00, 0x05, 0x00, 0x00, 0x00,
  0x14, 0x00, 0x00, 0x00, 0x34, 0x00, 0x00, 0x00, 0x02, 0x00, 0x00, 0x00,
  0x01, 0x00, 0x00, 0x00, 0x01, 0x00, 0x00, 0x00, 0x1e, 0x00, 0x00, 0x00,
  0x73, 0x65, 0x71, 0x75, 0x65, 0x6e, 0x74, 0x69, 0x61, 0x6c, 0x5f, 0x33,
  0x31, 0x2f, 0x64, 0x65, 0x6e, 0x73, 0x65, 0x5f, 0x36, 0x33, 0x2f, 0x4d,
  0x61, 0x74, 0x4d, 0x75, 0x6c, 0x32, 0x00, 0x00, 0xc0, 0xf6, 0xff, 0xff,
  0x00, 0x00, 0x0e, 0x00, 0x16, 0x00, 0x00, 0x00, 0x08, 0x00, 0x0c, 0x00,
  0x07, 0x00, 0x10, 0x00, 0x0e, 0x00, 0x00, 0x00, 0x00, 0x00, 0x00, 0x08,
  0x24, 0x00, 0x00, 0x00, 0x18, 0x00, 0x00, 0x00, 0x0c, 0x00, 0x00, 0x00,
  0x00, 0x00, 0x06, 0x00, 0x08, 0x00, 0x07, 0x00, 0x06, 0x00, 0x00, 0x00,
  0x00, 0x00, 0x00, 0x01, 0x01, 0x00, 0x00, 0x00, 0x03, 0x00, 0x00, 0x00,
  0x03, 0x00, 0x00, 0x00, 0x00, 0x00, 0x00, 0x00, 0x01, 0x00, 0x00, 0x00,
  0xff, 0xff, 0xff, 0xff, 0x00, 0x00, 0x0a, 0x00, 0x0c, 0x00, 0x07, 0x00,
  0x00, 0x00, 0x08, 0x00, 0x0a, 0x00, 0x00, 0x00, 0x00, 0x00, 0x00, 0x09,
  0x01, 0x00, 0x00, 0x00, 0x1e, 0xf7, 0xff, 0xff, 0x10, 0x00, 0x00, 0x00,
  0x04, 0x00, 0x00, 0x00, 0x14, 0x00, 0x00, 0x00, 0x30, 0x00, 0x00, 0x00,
  0x02, 0x00, 0x00, 0x00, 0x01, 0x00, 0x00, 0x00, 0x16, 0x00, 0x00, 0x00,
  0x1b, 0x00, 0x00, 0x00, 0x73, 0x65, 0x71, 0x75, 0x65, 0x6e, 0x74, 0x69,
  0x61, 0x6c, 0x5f, 0x33, 0x31, 0x2f, 0x64, 0x65, 0x6e, 0x73, 0x65, 0x5f,
  0x36, 0x32, 0x2f, 0x52, 0x65, 0x6c, 0x75, 0x00, 0x18, 0xf7, 0xff, 0xff,
  0x52, 0xff, 0xff, 0xff, 0x04, 0x00, 0x00, 0x00, 0x58, 0x00, 0x00, 0x00,
  0x6c, 0xa3, 0x2f, 0xbe, 0xca, 0xdf, 0xcc, 0x3e, 0x2a, 0x07, 0x96, 0x3e,
  0x00, 0x5c, 0x3a, 0x3e, 0x44, 0x15, 0x20, 0x3e, 0xbe, 0xe2, 0xa9, 0xbe,
  0xb0, 0x91, 0xd3, 0xbd, 0xdc, 0x44, 0x20, 0xbe, 0xfa, 0x7a, 0xb3, 0xbe,
  0xca, 0x5a, 0xa5, 0xbe, 0xf7, 0xba, 0xef, 0xbe, 0x50, 0xcb, 0x75, 0x3e,
  0xbc, 0x17, 0xac, 0xbe, 0xec, 0x94, 0xbc, 0xbe, 0x68, 0x58, 0x20, 0x3e,
  0x00, 0x4e, 0x58, 0x3b, 0x4c, 0x36, 0x51, 0x3e, 0x78, 0x0a, 0x80, 0x3d,
  0x54, 0x6b, 0xba, 0xbe, 0x64, 0xfd, 0x42, 0x3e, 0x0b, 0x6d, 0xb3, 0xbe,
  0x9e, 0x75, 0xe7, 0xbe, 0xc6, 0xf7, 0xff, 0xff, 0x10, 0x00, 0x00, 0x00,
  0x03, 0x00, 0x00, 0x00, 0x14, 0x00, 0x00, 0x00, 0x34, 0x00, 0x00, 0x00,
  0x02, 0x00, 0x00, 0x00, 0x01, 0x00, 0x00, 0x00, 0x16, 0x00, 0x00, 0x00,
  0x1d, 0x00, 0x00, 0x00, 0x73, 0x65, 0x71, 0x75, 0x65, 0x6e, 0x74, 0x69,
  0x61, 0x6c, 0x5f, 0x33, 0x31, 0x2f, 0x64, 0x65, 0x6e, 0x73, 0x65, 0x5f,
  0x36, 0x33, 0x2f, 0x4d, 0x61, 0x74, 0x4d, 0x75, 0x6c, 0x00, 0x00, 0x00,
  0x14, 0xf8, 0xff, 0xff, 0x00, 0x00, 0x06, 0x00, 0x08, 0x00, 0x04, 0x00,
  0x06, 0x00, 0x00, 0x00, 0x04, 0x00, 0x00, 0x00, 0x90, 0x07, 0x00, 0x00,
  0x14, 0xd7, 0xa2, 0xbd, 0xde, 0x28, 0x9d, 0xbe, 0xb4, 0xe1, 0x9f, 0xbe,
  0x6a, 0x72, 0x6b, 0x3e, 0x98, 0x47, 0x73, 0xbe, 0x14, 0x87, 0x53, 0xbe,
  0x08, 0xc3, 0x62, 0xbe, 0xef, 0xc6, 0x5c, 0xbe, 0x00, 0x7b, 0x1f, 0x3b,
  0x60, 0x87, 0xa7, 0xbe, 0x66, 0x96, 0x6a, 0x3e, 0x88, 0x1b, 0x8f, 0xbd,
  0x84, 0x22, 0x81, 0xbd, 0x0f, 0xcb, 0x6b, 0xbe, 0xfd, 0x95, 0xb9, 0xbe,
  0xe6, 0xac, 0x81, 0xbe, 0xad, 0x54, 0x1b, 0xbe, 0x42, 0x6c, 0x5b, 0x3e,
  0xc2, 0xf8, 0x8b, 0xbe, 0xd5, 0x20, 0x25, 0xbe, 0xa0, 0x53, 0x3d, 0x3c,
  0xf4, 0x35, 0xa5, 0xbe, 0x60, 0x11, 0x7c, 0xbe, 0xc0, 0xcf, 0x05, 0xbc,
  0xfe, 0xe3, 0x25, 0x3e, 0x00, 0xe0, 0x11, 0xbc, 0xbe, 0xc7, 0x36, 0x3e,
  0x30, 0xe6, 0x12, 0xbd, 0xc0, 0xf1, 0xf1, 0x3b, 0xdd, 0x06, 0x94, 0x3e,
  0x4f, 0x81, 0x52, 0xbe, 0x7e, 0xbe, 0x84, 0xbe, 0x16, 0xae, 0x1e, 0x3e,
  0x17, 0xe5, 0xbb, 0x3e, 0x90, 0x0d, 0x82, 0x3d, 0xc8, 0xe3, 0xec, 0x3d,
  0x35, 0xc9, 0xb2, 0x3e, 0x0a, 0x1a, 0x3a, 0xbe, 0x9e, 0x51, 0x6a, 0x3e,
  0xd3, 0x18, 0xbb, 0x3e, 0xd8, 0x5e, 0xe1, 0x3d, 0x60, 0xc0, 0xe1, 0x3c,
  0xd8, 0x9a, 0x28, 0x3d, 0x27, 0x61, 0x92, 0x3e, 0xe3, 0xd2, 0x81, 0x3e,
  0x5d, 0xf5, 0xb5, 0x3e, 0x53, 0x7d, 0x10, 0xbe, 0x8c, 0x19, 0xa6, 0x3d,
  0x62, 0x0d, 0x1a, 0x3e, 0x88, 0x16, 0x56, 0xbd, 0xd1, 0x7e, 0x1c, 0xbe,
  0xa0, 0x65, 0x56, 0x3d, 0xe3, 0x7d, 0x2b, 0xbe, 0x31, 0xd7, 0x15, 0xbe,
  0xff, 0x7e, 0x89, 0x3e, 0xa6, 0xcb, 0x12, 0x3e, 0x1c, 0x8c, 0x87, 0xbe,
  0x4c, 0xac, 0x02, 0xbe, 0xf0, 0x4e, 0x3b, 0x3d, 0x86, 0xf2, 0x3e, 0xbe,
  0x52, 0xab, 0xf9, 0xbd, 0xa4, 0x8d, 0x42, 0xbe, 0xd3, 0x09, 0xa2, 0xbe,
  0xe5, 0x59, 0x92, 0x3e, 0xcb, 0xd5, 0x02, 0xbe, 0x62, 0x4c, 0x5b, 0x3e,
  0x50, 0x5b, 0xbc, 0x3c, 0x28, 0xb1, 0xcb, 0xbd, 0x6a, 0x77, 0x0b, 0x3e,
  0x28, 0x75, 0x23, 0x3d, 0x8e, 0x63, 0x58, 0x3e, 0x00, 0x18, 0x99, 0x3c,
  0x3e, 0x75, 0x47, 0x3e, 0xd9, 0x89, 0x23, 0xbe, 0xcd, 0xae, 0xb6, 0xbe,
  0x10, 0xf9, 0xd7, 0x3d, 0x44, 0xf1, 0x21, 0xbe, 0x03, 0xbc, 0x0a, 0xbe,
  0x87, 0x55, 0x9c, 0xbe, 0x65, 0x31, 0x8a, 0xbe, 0x5b, 0xdf, 0x25, 0xbe,
  0x85, 0xb9, 0x3b, 0xbe, 0xa0, 0xef, 0x6f, 0xbc, 0x68, 0x5a, 0x89, 0xbe,
  0x18, 0x53, 0x28, 0xbd, 0x62, 0xfd, 0x56, 0x3e, 0xd1, 0x8d, 0xa2, 0xbe,
  0x60, 0xb4, 0xcb, 0xbc, 0xa7, 0x00, 0x37, 0xbe, 0xe2, 0xae, 0x61, 0xbe,
  0x76, 0x32, 0x65, 0x3e, 0x1b, 0xd2, 0x90, 0x3e, 0xd4, 0x20, 0xb5, 0xbd,
  0xf8, 0xb7, 0x7b, 0xbd, 0xfa, 0x0c, 0x06, 0x3e, 0xe0, 0x45, 0x50, 0x3d,
  0x21, 0x53, 0x7d, 0xbe, 0x8a, 0x93, 0x61, 0x3e, 0xc2, 0xd2, 0x27, 0x3e,
  0x19, 0xa2, 0x5f, 0xbe, 0xb6, 0xb1, 0x0b, 0x3e, 0xb0, 0x26, 0x1c, 0x3d,
  0x71, 0xb4, 0xb9, 0x3e, 0x1d, 0xc1, 0x35, 0xbe, 0x80, 0xf7, 0xd1, 0x3b,
  0x9c, 0x3b, 0xfd, 0x3d, 0x40, 0x56, 0xbd, 0x3b, 0x28, 0x88, 0x8e, 0x3d,
  0xf9, 0x2b, 0x08, 0xbe, 0x80, 0xd4, 0x99, 0xbe, 0xe6, 0xc2, 0x20, 0x3e,
  0x55, 0xe9, 0x86, 0x3e, 0x75, 0x62, 0x14, 0xbe, 0x04, 0xa2, 0xbf, 0x3d,
  0x60, 0x66, 0xd2, 0xbc, 0x2a, 0x4b, 0x2d, 0x3e, 0x9f, 0x66, 0x61, 0xbe,
  0x88, 0xa4, 0x0f, 0x3d, 0x90, 0x3b, 0x1e, 0xbe, 0xbf, 0xc9, 0x36, 0xbe,
  0x72, 0x17, 0x17, 0xbe, 0x30, 0x79, 0xec, 0x3c, 0x56, 0x7d, 0x58, 0x3e,
  0x80, 0x5b, 0xe8, 0xbc, 0x81, 0x86, 0xae, 0x3e, 0x5d, 0x22, 0x93, 0x3e,
  0xee, 0x35, 0x1c, 0x3e, 0x0a, 0xf8, 0x39, 0x3e, 0xb3, 0xa6, 0x49, 0xbe,
  0xce, 0x4c, 0x54, 0x3e, 0xd8, 0x1d, 0x1a, 0x3d, 0xf5, 0x1a, 0x42, 0xbe,
  0x56, 0x7d, 0x7a, 0x3e, 0x24, 0x5b, 0x7a, 0xbe, 0xd6, 0x34, 0x58, 0x3e,
  0x1a, 0x91, 0x17, 0x3e, 0x38, 0x6c, 0x7a, 0xbe, 0x40, 0x3b, 0xd9, 0xbc,
  0xa7, 0x2f, 0x8d, 0x3e, 0x80, 0x3e, 0x86, 0x3c, 0x34, 0xb0, 0x91, 0xbe,
  0xe0, 0x3d, 0x6d, 0xbc, 0xa4, 0x6b, 0xbd, 0xbd, 0xea, 0x80, 0x2f, 0x3e,
  0x00, 0x8e, 0x15, 0xba, 0x7d, 0xfb, 0x2c, 0xbe, 0xb0, 0x62, 0x25, 0x3d,
  0xe8, 0x10, 0x41, 0xbd, 0x11, 0xee, 0x76, 0xbe, 0x8a, 0xa2, 0x2b, 0x3e,
  0x22, 0xfd, 0x83, 0xbe, 0x87, 0xf3, 0xaa, 0x3e, 0x51, 0xfc, 0x95, 0x3e,
  0x67, 0x5b, 0xb4, 0x3e, 0x42, 0x1f, 0x2d, 0x3e, 0xc9, 0x99, 0x8c, 0x3e,
  0x30, 0x32, 0xa2, 0x3d, 0x16, 0x55, 0x5c, 0x3e, 0x1c, 0x59, 0x9f, 0x3d,
  0xb5, 0x9c, 0x82, 0x3e, 0x26, 0x71, 0x8d, 0xbe, 0x4a, 0x62, 0x31, 0x3e,
  0x11, 0xec, 0x65, 0xbe, 0xac, 0x15, 0x95, 0xbd, 0xa9, 0x5d, 0xb7, 0x3e,
  0xc0, 0x56, 0x96, 0x3d, 0x95, 0x30, 0x99, 0x3e, 0xcb, 0x2b, 0x2e, 0xbe,
  0x36, 0x24, 0x47, 0x3e, 0x40, 0x18, 0x60, 0xbd, 0xd0, 0x46, 0x50, 0xbd,
  0x72, 0x42, 0x41, 0x3e, 0xc0, 0x26, 0xbb, 0x3c, 0x56, 0xfa, 0x7a, 0x3e,
  0xfe, 0x5b, 0x84, 0xbe, 0xc0, 0xa4, 0x80, 0xbe, 0x2b, 0xfc, 0x8d, 0x3e,
  0x5f, 0x59, 0xb3, 0xbe, 0xbe, 0x55, 0x10, 0x3e, 0xc0, 0xbb, 0x8a, 0x3d,
  0x72, 0x82, 0xb0, 0xbe, 0xa0, 0x1a, 0x72, 0x3c, 0x76, 0xb5, 0x62, 0x3e,
  0x52, 0x90, 0x5d, 0x3e, 0x47, 0x75, 0x97, 0x3e, 0xd4, 0x49, 0xee, 0xbd,
  0x8a, 0x7e, 0xbb, 0xbe, 0xf0, 0x5c, 0x9e, 0x3d, 0xe2, 0x66, 0x53, 0xbe,
  0xc3, 0x85, 0xa6, 0x3e, 0xf2, 0x4e, 0x1f, 0x3e, 0xe0, 0x75, 0xe4, 0x3c,
  0xa0, 0x50, 0x21, 0xbd, 0xef, 0x18, 0x62, 0xbe, 0xcc, 0xad, 0xbf, 0xbd,
  0xab, 0xef, 0x60, 0xbe, 0x7c, 0xc3, 0x94, 0xbe, 0xbc, 0x3b, 0xc5, 0x3d,
  0xba, 0x30, 0x65, 0x3e, 0x88, 0x9b, 0xf8, 0x3d, 0x28, 0x47, 0xf2, 0xbd,
  0xc7, 0xee, 0x4a, 0xbe, 0xc5, 0x5f, 0x59, 0xbe, 0xa4, 0xae, 0x83, 0xbe,
  0x2a, 0x0c, 0x3e, 0xbe, 0x24, 0xa6, 0xfe, 0x3d, 0x6f, 0x01, 0xa4, 0xbe,
  0x5c, 0x21, 0xdd, 0x3d, 0x70, 0x19, 0xc9, 0x3d, 0x84, 0xec, 0x1e, 0xbe,
  0xd4, 0x3c, 0xd9, 0xbd, 0x68, 0x73, 0x25, 0xbd, 0xf4, 0xed, 0xc6, 0x3d,
  0xb8, 0x6c, 0x7b, 0xbd, 0x46, 0x08, 0x63, 0x3e, 0xfa, 0xe8, 0x67, 0x3e,
  0x36, 0xaa, 0x6a, 0x3e, 0x50, 0xdf, 0x36, 0x3d, 0xaf, 0x2f, 0xa5, 0x3e,
  0x6e, 0x8a, 0x0e, 0x3e, 0x80, 0x57, 0x75, 0x3b, 0x1b, 0x9a, 0x8f, 0x3e,
  0x45, 0xfd, 0x20, 0xbe, 0xa7, 0x1c, 0xad, 0xbe, 0xa0, 0xc5, 0xef, 0xbd,
  0x8e, 0xbd, 0xa5, 0xbe, 0xee, 0xb9, 0x17, 0x3e, 0x09, 0x2a, 0xa0, 0x3e,
  0x46, 0x7b, 0x71, 0x3e, 0xd5, 0x4e, 0xa9, 0x3e, 0x4a, 0x82, 0x72, 0x3e,
  0xa3, 0xad, 0x9d, 0x3e, 0xc4, 0xb7, 0xba, 0xbe, 0x17, 0xa9, 0x88, 0x3e,
  0x80, 0x13, 0x87, 0x3d, 0x94, 0x59, 0xb6, 0xbe, 0xfa, 0x60, 0x55, 0x3e,
  0x18, 0x37, 0x65, 0x3d, 0x39, 0x6f, 0x93, 0x3e, 0x34, 0x56, 0x73, 0xbe,
  0xc8, 0xc6, 0x25, 0xbd, 0xd8, 0x76, 0x1e, 0xbd, 0x70, 0x17, 0xcb, 0x3d,
  0x0a, 0x1f, 0x13, 0x3e, 0x73, 0x39, 0x90, 0x3e, 0x80, 0x54, 0x44, 0xbc,
  0xd6, 0xab, 0x9a, 0xbe, 0xf2, 0x99, 0x38, 0xbe, 0xb9, 0x55, 0xb5, 0xbe,
  0x90, 0x72, 0x5d, 0xbd, 0xc0, 0xf5, 0x19, 0xbe, 0x04, 0xb6, 0xab, 0x3d,
  0xd5, 0x25, 0xa1, 0xbe, 0x7a, 0xbb, 0xa6, 0xbe, 0x8f, 0x20, 0x88, 0x3e,
  0x4e, 0xa3, 0x23, 0xbe, 0x7d, 0x33, 0xad, 0x3e, 0xb8, 0x2a, 0x17, 0xbe,
  0x3c, 0x8c, 0x40, 0xbe, 0x64, 0x22, 0xc0, 0x3d, 0xdf, 0xf0, 0x57, 0xbe,
  0x46, 0xc8, 0x34, 0x3e, 0x40, 0x76, 0xd1, 0x3b, 0x61, 0x53, 0x26, 0xbe,
  0xf6, 0x49, 0x2e, 0x3e, 0xda, 0xde, 0x1e, 0x3e, 0x80, 0x5e, 0x2b, 0xbc,
  0xc6, 0xd7, 0xa7, 0xbe, 0xf0, 0xad, 0x47, 0xbd, 0x83, 0x7f, 0x99, 0xbe,
  0x84, 0x77, 0x30, 0xbe, 0xd5, 0x7a, 0xa5, 0xbe, 0x18, 0x78, 0x63, 0x3d,
  0xac, 0x4e, 0xb6, 0xbe, 0xd4, 0xba, 0x92, 0xbd, 0x2b, 0x2a, 0x6d, 0xbe,
  0x3a, 0x86, 0x26, 0x3e, 0x46, 0x8b, 0x97, 0xbe, 0x40, 0xa4, 0x06, 0xbd,
  0xc9, 0x8f, 0x77, 0xbe, 0xf5, 0x5a, 0x75, 0xbe, 0x81, 0x29, 0xb4, 0xbe,
  0xc3, 0x91, 0x89, 0x3e, 0x38, 0xdf, 0x9f, 0xbe, 0x56, 0x16, 0x23, 0x3e,
  0xd6, 0x45, 0x48, 0x3e, 0x02, 0x2c, 0x45, 0x3e, 0x26, 0xc4, 0xfc, 0xbd,
  0x59, 0xe0, 0x29, 0xbe, 0x90, 0x1f, 0xc5, 0xbc, 0xae, 0x0b, 0x3c, 0xbe,
  0x38, 0x06, 0xdf, 0xbd, 0x6a, 0xf0, 0x9f, 0xbe, 0xd7, 0x7b, 0x9b, 0xbe,
  0xbc, 0xd5, 0xa7, 0x3d, 0x72, 0x28, 0xac, 0xbe, 0xd8, 0x02, 0x4c, 0x3d,
  0x90, 0x15, 0xaf, 0xbd, 0x53, 0xd4, 0xbb, 0xbe, 0x42, 0x0a, 0x31, 0x3e,
  0xb3, 0x0e, 0xb6, 0x3e, 0xf0, 0xd8, 0xe8, 0xbd, 0x50, 0x3f, 0x66, 0xbd,
  0xdd, 0x9d, 0xac, 0xbe, 0x27, 0x82, 0xb0, 0x3e, 0xe5, 0x59, 0x8f, 0x3e,
  0x01, 0x1a, 0x9b, 0x3e, 0x18, 0xf6, 0x74, 0xbd, 0xd3, 0xe9, 0x69, 0xbe,
  0x5d, 0x85, 0x98, 0xbe, 0x73, 0x48, 0xba, 0xbe, 0x79, 0x01, 0x80, 0xbe,
  0x38, 0x02, 0x3c, 0x3d, 0xa0, 0x5c, 0x9c, 0x3c, 0x4b, 0x1a, 0xa2, 0x3e,
  0xa0, 0xfa, 0xcc, 0x3c, 0xc0, 0x8f, 0x60, 0xbe, 0xd8, 0xbc, 0x78, 0x3d,
  0x35, 0x01, 0xb2, 0x3e, 0x8c, 0xcc, 0x86, 0xbe, 0xf4, 0xe2, 0x59, 0xbe,
  0x19, 0x6e, 0x30, 0xbe, 0xae, 0x1b, 0x0c, 0x3e, 0x40, 0xc8, 0x98, 0x3c,
  0xb6, 0x54, 0x37, 0x3e, 0x00, 0xe8, 0x79, 0xbb, 0x47, 0x29, 0x95, 0x3e,
  0x30, 0x31, 0xa3, 0xbe, 0x5c, 0xab, 0x99, 0x3d, 0x14, 0xd2, 0xb2, 0xbd,
  0xde, 0x04, 0x44, 0x3e, 0xf8, 0xf6, 0xfd, 0x3d, 0x34, 0x0b, 0xef, 0x3d,
  0x58, 0x21, 0xaf, 0xbd, 0xc2, 0xab, 0x7d, 0x3e, 0xe5, 0x9e, 0xa8, 0x3e,
  0xf3, 0x67, 0x45, 0xbe, 0x98, 0x61, 0x3f, 0xbd, 0x88, 0x65, 0x89, 0xbe,
  0x70, 0x54, 0xfd, 0x3d, 0x7e, 0x6c, 0x25, 0x3e, 0x75, 0xad, 0x90, 0x3e,
  0x81, 0xdf, 0x8d, 0x3e, 0xe1, 0x57, 0x8d, 0x3e, 0xd8, 0x05, 0x11, 0xbd,
  0x00, 0x37, 0xb9, 0xba, 0x36, 0x0e, 0x78, 0x3e, 0x10, 0x23, 0x8a, 0xbe,
  0xca, 0x12, 0xbc, 0xbe, 0x4e, 0x44, 0xaa, 0xbe, 0xeb, 0xe8, 0x84, 0x3e,
  0xc0, 0xe0, 0xf7, 0x3b, 0x6a, 0x8a, 0xa1, 0xbe, 0x40, 0x3e, 0x4c, 0x3c,
  0x18, 0x04, 0xdc, 0x3d, 0x38, 0x65, 0x0d, 0x3d, 0x06, 0x7b, 0x02, 0xbe,
  0xd9, 0x89, 0x23, 0xbe, 0xa0, 0xfd, 0xf9, 0x3d, 0x18, 0x9f, 0xe7, 0x3d,
  0xc9, 0x5f, 0x0a, 0xbe, 0xf4, 0x3e, 0xce, 0x3d, 0x71, 0x84, 0x9c, 0x3e,
  0x60, 0x3d, 0xe6, 0x3d, 0x8a, 0x71, 0x2e, 0xbe, 0x84, 0x3d, 0xdf, 0xbd,
  0xbe, 0x83, 0xa4, 0xbe, 0xfe, 0x9c, 0x60, 0x3e, 0x7e, 0xd1, 0x3c, 0x3e,
  0xe8, 0x6b, 0x5d, 0xbd, 0x97, 0xf3, 0xac, 0x3e, 0x4e, 0xff, 0x1d, 0x3e,
  0x95, 0xdc, 0x61, 0xbe, 0xc4, 0x06, 0xec, 0xbd, 0x5c, 0x92, 0xea, 0xbd,
  0x10, 0x48, 0x66, 0xbe, 0x7e, 0xa8, 0x30, 0x3e, 0x7c, 0x10, 0x9a, 0xbe,
  0x8c, 0xfe, 0x87, 0xbd, 0x99, 0x0e, 0x59, 0xbe, 0x8d, 0x20, 0xb4, 0xbe,
  0x80, 0xbd, 0xc8, 0xbc, 0x8f, 0x35, 0x8c, 0xbe, 0x68, 0xf8, 0xef, 0xbd,
  0x77, 0x34, 0x86, 0xbe, 0x79, 0x90, 0x9a, 0x3e, 0x4d, 0x1f, 0xb9, 0x3e,
  0x74, 0xa5, 0xa4, 0x3d, 0x10, 0xfa, 0xd4, 0xbc, 0x2f, 0xf4, 0x73, 0xbe,
  0xab, 0xee, 0x97, 0x3e, 0x17, 0x15, 0xb2, 0xbe, 0xc0, 0x20, 0x54, 0xbc,
  0x28, 0xd3, 0x87, 0xbd, 0x9c, 0xc8, 0x3c, 0xbe, 0x98, 0x9f, 0x98, 0x3d,
  0x9d, 0x8a, 0xb1, 0xbe, 0xe6, 0xb7, 0x75, 0xbe, 0xc9, 0x02, 0xbc, 0xbe,
  0x4a, 0xf9, 0x74, 0x3e, 0x64, 0x3e, 0x8e, 0x3d, 0x4f, 0xe9, 0x47, 0xbe,
  0xd2, 0x5d, 0x6f, 0x3e, 0x8b, 0xe0, 0x8e, 0x3e, 0xa4, 0x8d, 0x9a, 0xbd,
  0xe6, 0x39, 0x14, 0x3e, 0x02, 0x26, 0x78, 0xbe, 0x00, 0x9b, 0xc1, 0xba,
  0xd6, 0xf0, 0x48, 0x3e, 0x5e, 0xd8, 0x9b, 0xbe, 0x66, 0x08, 0x49, 0xbe,
  0x60, 0x15, 0x8a, 0xbe, 0x29, 0x28, 0x92, 0x3e, 0xd6, 0x9a, 0xf9, 0xbd,
  0xb0, 0xc8, 0xad, 0xbc, 0xc0, 0xb8, 0x16, 0x3d, 0x20, 0x6f, 0x9f, 0xbd,
  0x00, 0x8a, 0x4e, 0xba, 0x10, 0xf7, 0x92, 0x3d, 0x0a, 0x67, 0x5e, 0xbe,
  0x6b, 0x4a, 0xb0, 0x3e, 0xd1, 0x81, 0x9b, 0x3e, 0xf4, 0xfa, 0xea, 0xbd,
  0xba, 0x3c, 0x09, 0xbe, 0x80, 0x78, 0xf6, 0xbb, 0x0d, 0x96, 0x2e, 0xbe,
  0xab, 0x10, 0x36, 0xbe, 0x24, 0x07, 0x5c, 0xbe, 0x70, 0x7d, 0x7b, 0xbd,
  0x3e, 0xea, 0x68, 0xbe, 0x32, 0xb6, 0x64, 0x3e, 0x6c, 0x42, 0xc0, 0xbd,
  0x30, 0xa8, 0x53, 0x3d, 0x55, 0x4a, 0xb4, 0x3e, 0x07, 0x62, 0x98, 0x3e,
  0x8f, 0x20, 0xbc, 0xbe, 0x42, 0x60, 0xff, 0xbd, 0xc0, 0x0e, 0x6d, 0x3d,
  0x14, 0x3d, 0x94, 0xbe, 0x10, 0x8f, 0xed, 0xbc, 0x35, 0xce, 0xa3, 0xbe,
  0x4a, 0x2d, 0x0d, 0x3e, 0x27, 0x8d, 0x92, 0x3e, 0x20, 0x0c, 0xe7, 0xbd,
  0x54, 0xf9, 0xe8, 0x3d, 0x42, 0xaa, 0x42, 0xbe, 0x98, 0x08, 0x34, 0xbe,
  0x0d, 0xf1, 0xb9, 0x3e, 0x09, 0x13, 0xbc, 0x3e, 0x18, 0x2f, 0x12, 0xbd,
  0x2b, 0xf6, 0xab, 0x3e, 0x18, 0x59, 0xb3, 0xbe, 0x8a, 0xf9, 0x6f, 0xbe,
  0xf0, 0x5f, 0xec, 0x3d, 0xf3, 0xea, 0x44, 0xbe, 0xe8, 0x3f, 0x2c, 0x3d,
  0xe9, 0x40, 0x8f, 0x3e, 0xc8, 0x09, 0x37, 0x3d, 0x90, 0xa7, 0x0a, 0xbe,
  0x98, 0xf7, 0x53, 0x3d, 0xfc, 0x59, 0x89, 0x3d, 0x80, 0x95, 0xd0, 0x3d,
  0xf0, 0x50, 0xc4, 0x3c, 0x01, 0x0e, 0xb5, 0xbe, 0x44, 0xe4, 0xb5, 0x3d,
  0x30, 0x24, 0xad, 0xbe, 0x40, 0x47, 0x54, 0xbd, 0x8c, 0x12, 0xd8, 0xbd,
  0x60, 0x3e, 0x7d, 0xbd, 0x48, 0xcc, 0x97, 0x3d, 0x5c, 0x6c, 0x96, 0x3d,
  0x7d, 0xba, 0xb8, 0xbe, 0xb8, 0x53, 0x4e, 0x3d, 0x0e, 0x0a, 0x13, 0x3e,
  0x22, 0xe9, 0x45, 0x3e, 0x65, 0x18, 0x13, 0xbe, 0xd0, 0x37, 0xd6, 0xbc,
  0xbe, 0xff, 0x1e, 0x3e, 0x63, 0xc1, 0x6d, 0xbe, 0xbb, 0xca, 0x92, 0x3e,
  0xd0, 0x1a, 0xd2, 0x3d, 0xe6, 0xd7, 0x5d, 0xbe, 0x80, 0x60, 0x6d, 0xbc,
  0xf4, 0xe5, 0x85, 0xbd, 0xb2, 0xff, 0xff, 0xff, 0x10, 0x00, 0x00, 0x00,
  0x02, 0x00, 0x00, 0x00, 0x14, 0x00, 0x00, 0x00, 0x38, 0x00, 0x00, 0x00,
  0x02, 0x00, 0x00, 0x00, 0x16, 0x00, 0x00, 0x00, 0x16, 0x00, 0x00, 0x00,
  0x1d, 0x00, 0x00, 0x00, 0x73, 0x65, 0x71, 0x75, 0x65, 0x6e, 0x74, 0x69,
  0x61, 0x6c, 0x5f, 0x33, 0x31, 0x2f, 0x64, 0x65, 0x6e, 0x73, 0x65, 0x5f,
  0x36, 0x32, 0x2f, 0x4d, 0x61, 0x74, 0x4d, 0x75, 0x6c, 0x00, 0x00, 0x00,
  0x04, 0x00, 0x06, 0x00, 0x04, 0x00, 0x00, 0x00, 0x00, 0x00, 0x0e, 0x00,
  0x14, 0x00, 0x04, 0x00, 0x00, 0x00, 0x08, 0x00, 0x0c, 0x00, 0x10, 0x00,
  0x0e, 0x00, 0x00, 0x00, 0x10, 0x00, 0x00, 0x00, 0x01, 0x00, 0x00, 0x00,
  0x14, 0x00, 0x00, 0x00, 0x24, 0x00, 0x00, 0x00, 0x02, 0x00, 0x00, 0x00,
  0x01, 0x00, 0x00, 0x00, 0x16, 0x00, 0x00, 0x00, 0x0e, 0x00, 0x00, 0x00,
  0x64, 0x65, 0x6e, 0x73, 0x65, 0x5f, 0x36, 0x32, 0x5f, 0x69, 0x6e, 0x70,
  0x75, 0x74, 0x00, 0x00, 0xfc, 0xff, 0xff, 0xff, 0x04, 0x00, 0x04, 0x00,
  0x04, 0x00, 0x00, 0x00
};
